#include <cstdint>
const unsigned char env_model_data[] = {
    0x1c, 0x00, 0x00, 0x00, 0x54, 0x46, 0x4c, 0x33, 0x14, 0x00, 0x20, 0x00,
    0x1c, 0x00, 0x18, 0x00, 0x14, 0x00, 0x10, 0x00, 0x0c, 0x00, 0x00, 0x00,
    0x08, 0x00, 0x04, 0x00, 0x14, 0x00, 0x00, 0x00, 0x1c, 0x00, 0x00, 0x00,
    0x98, 0x00, 0x00, 0x00, 0xf0, 0x00, 0x00, 0x00, 0x5c, 0x05, 0x00, 0x00,
    0x6c, 0x05, 0x00, 0x00, 0x20, 0x0b, 0x00, 0x00, 0x03, 0x00, 0x00, 0x00,
    0x01, 0x00, 0x00, 0x00, 0x10, 0x00, 0x00, 0x00, 0x00, 0x00, 0x0a, 0x00,
    0x10, 0x00, 0x0c, 0x00, 0x08, 0x00, 0x04, 0x00, 0x0a, 0x00, 0x00, 0x00,
    0x0c, 0x00, 0x00, 0x00, 0x1c, 0x00, 0x00, 0x00, 0x3c, 0x00, 0x00, 0x00,
    0x0f, 0x00, 0x00, 0x00, 0x73, 0x65, 0x72, 0x76, 0x69, 0x6e, 0x67, 0x5f,
    0x64, 0x65, 0x66, 0x61, 0x75, 0x6c, 0x74, 0x00, 0x01, 0x00, 0x00, 0x00,
    0x04, 0x00, 0x00, 0x00, 0x90, 0xff, 0xff, 0xff, 0x0a, 0x00, 0x00, 0x00,
    0x04, 0x00, 0x00, 0x00, 0x08, 0x00, 0x00, 0x00, 0x6f, 0x75, 0x74, 0x70,
    0x75, 0x74, 0x5f, 0x30, 0x00, 0x00, 0x00, 0x00, 0x01, 0x00, 0x00, 0x00,
    0x04, 0x00, 0x00, 0x00, 0x8a, 0xfa, 0xff, 0xff, 0x04, 0x00, 0x00, 0x00,
    0x0c, 0x00, 0x00, 0x00, 0x6b, 0x65, 0x72, 0x61, 0x73, 0x5f, 0x74, 0x65,
    0x6e, 0x73, 0x6f, 0x72, 0x00, 0x00, 0x00, 0x00, 0x02, 0x00, 0x00, 0x00,
    0x34, 0x00, 0x00, 0x00, 0x04, 0x00, 0x00, 0x00, 0xdc, 0xff, 0xff, 0xff,
    0x0d, 0x00, 0x00, 0x00, 0x04, 0x00, 0x00, 0x00, 0x13, 0x00, 0x00, 0x00,
    0x43, 0x4f, 0x4e, 0x56, 0x45, 0x52, 0x53, 0x49, 0x4f, 0x4e, 0x5f, 0x4d,
    0x45, 0x54, 0x41, 0x44, 0x41, 0x54, 0x41, 0x00, 0x08, 0x00, 0x0c, 0x00,
    0x08, 0x00, 0x04, 0x00, 0x08, 0x00, 0x00, 0x00, 0x0c, 0x00, 0x00, 0x00,
    0x04, 0x00, 0x00, 0x00, 0x13, 0x00, 0x00, 0x00, 0x6d, 0x69, 0x6e, 0x5f,
    0x72, 0x75, 0x6e, 0x74, 0x69, 0x6d, 0x65, 0x5f, 0x76, 0x65, 0x72, 0x73,
    0x69, 0x6f, 0x6e, 0x00, 0x0e, 0x00, 0x00, 0x00, 0x68, 0x04, 0x00, 0x00,
    0x60, 0x04, 0x00, 0x00, 0xf0, 0x03, 0x00, 0x00, 0xe0, 0x01, 0x00, 0x00,
    0xc4, 0x01, 0x00, 0x00, 0x94, 0x01, 0x00, 0x00, 0x44, 0x01, 0x00, 0x00,
    0xb4, 0x00, 0x00, 0x00, 0xac, 0x00, 0x00, 0x00, 0xa4, 0x00, 0x00, 0x00,
    0x9c, 0x00, 0x00, 0x00, 0x94, 0x00, 0x00, 0x00, 0x74, 0x00, 0x00, 0x00,
    0x04, 0x00, 0x00, 0x00, 0x3e, 0xfb, 0xff, 0xff, 0x04, 0x00, 0x00, 0x00,
    0x60, 0x00, 0x00, 0x00, 0x10, 0x00, 0x00, 0x00, 0x00, 0x00, 0x00, 0x00,
    0x08, 0x00, 0x0e, 0x00, 0x08, 0x00, 0x04, 0x00, 0x08, 0x00, 0x00, 0x00,
    0x10, 0x00, 0x00, 0x00, 0x24, 0x00, 0x00, 0x00, 0x00, 0x00, 0x06, 0x00,
    0x08, 0x00, 0x04, 0x00, 0x06, 0x00, 0x00, 0x00, 0x04, 0x00, 0x00, 0x00,
    0x00, 0x00, 0x00, 0x00, 0x0c, 0x00, 0x18, 0x00, 0x14, 0x00, 0x10, 0x00,
    0x0c, 0x00, 0x04, 0x00, 0x0c, 0x00, 0x00, 0x00, 0xcb, 0x85, 0xfc, 0x36,
    0x89, 0x5a, 0x65, 0x73, 0x02, 0x00, 0x00, 0x00, 0x02, 0x00, 0x00, 0x00,
    0x04, 0x00, 0x00, 0x00, 0x06, 0x00, 0x00, 0x00, 0x32, 0x2e, 0x31, 0x39,
    0x2e, 0x30, 0x00, 0x00, 0xaa, 0xfb, 0xff, 0xff, 0x04, 0x00, 0x00, 0x00,
    0x10, 0x00, 0x00, 0x00, 0x31, 0x2e, 0x35, 0x2e, 0x30, 0x00, 0x00, 0x00,
    0x00, 0x00, 0x00, 0x00, 0x00, 0x00, 0x00, 0x00, 0xc0, 0xf6, 0xff, 0xff,
    0xc4, 0xf6, 0xff, 0xff, 0xc8, 0xf6, 0xff, 0xff, 0xcc, 0xf6, 0xff, 0xff,
    0xd6, 0xfb, 0xff, 0xff, 0x04, 0x00, 0x00, 0x00, 0x80, 0x00, 0x00, 0x00,
    0xec, 0x76, 0x9c, 0xbe, 0x2e, 0x00, 0xa4, 0x3d, 0x80, 0xb5, 0xb2, 0x3c,
    0x91, 0xb4, 0xb1, 0xbe, 0x1e, 0xbb, 0x01, 0xbf, 0xfc, 0xc0, 0x08, 0xbf,
    0xbf, 0x7e, 0xd4, 0x3e, 0x7a, 0x21, 0xbe, 0xbe, 0xb8, 0x6b, 0xa3, 0xbe,
    0x00, 0xbd, 0xd2, 0xbb, 0xae, 0x37, 0xa7, 0x3e, 0x5b, 0xe6, 0x8e, 0x3d,
    0xfc, 0x23, 0xf8, 0x3e, 0xbf, 0x2e, 0x04, 0x3e, 0x60, 0x79, 0x2d, 0x3d,
    0x22, 0xcd, 0xa7, 0xbe, 0x9a, 0x00, 0x68, 0x3e, 0x01, 0xc4, 0x9f, 0x3e,
    0xa4, 0xde, 0x4c, 0xbe, 0x68, 0x8e, 0xc7, 0xbe, 0x63, 0x9f, 0x19, 0xbe,
    0x44, 0x78, 0x9c, 0x3e, 0xd5, 0xd0, 0xbe, 0x3e, 0x37, 0x9d, 0x1d, 0xbe,
    0x9d, 0x26, 0x8e, 0xbe, 0xef, 0x3d, 0x66, 0x3e, 0x69, 0x17, 0x8c, 0x3e,
    0xaa, 0xe3, 0x83, 0xbb, 0x73, 0xb1, 0x8a, 0xbe, 0x7c, 0xc4, 0xab, 0x3e,
    0xe3, 0xf4, 0xcc, 0xbd, 0xf6, 0x9b, 0xf0, 0x3e, 0x62, 0xfc, 0xff, 0xff,
    0x04, 0x00, 0x00, 0x00, 0x40, 0x00, 0x00, 0x00, 0x8f, 0xee, 0x92, 0xbe,
    0x00, 0x00, 0x00, 0x00, 0x00, 0x00, 0x00, 0x00, 0xf0, 0xf6, 0x28, 0xbf,
    0x00, 0x00, 0x00, 0x00, 0xaf, 0x31, 0xdc, 0xbe, 0x9d, 0x94, 0x9e, 0x3f,
    0x00, 0x00, 0x00, 0x00, 0x88, 0x64, 0x9d, 0xbf, 0x00, 0x00, 0x00, 0x00,
    0xdf, 0x96, 0x95, 0xbf, 0xb7, 0x13, 0x95, 0xbf, 0x3f, 0x9f, 0x8a, 0x3f,
    0x00, 0xc1, 0x89, 0x3f, 0x79, 0x71, 0x82, 0x3f, 0x26, 0x1b, 0x9a, 0xbf,
    0xae, 0xfc, 0xff, 0xff, 0x04, 0x00, 0x00, 0x00, 0x20, 0x00, 0x00, 0x00,
    0xf5, 0x3f, 0xb8, 0xbf, 0x0a, 0xd9, 0xa6, 0x3f, 0x00, 0x00, 0x00, 0x00,
    0x6a, 0x84, 0xa0, 0x3f, 0x38, 0xc5, 0x8b, 0xbd, 0x7f, 0x63, 0xb3, 0xbf,
    0xc1, 0x9c, 0x71, 0xbd, 0x00, 0x00, 0x00, 0x00, 0xda, 0xfc, 0xff, 0xff,
    0x04, 0x00, 0x00, 0x00, 0x0c, 0x00, 0x00, 0x00, 0x9e, 0x15, 0x3b, 0x3e,
    0x6e, 0x1a, 0x84, 0x3f, 0x2f, 0x39, 0xa9, 0xbf, 0xf2, 0xfc, 0xff, 0xff,
    0x04, 0x00, 0x00, 0x00, 0x00, 0x02, 0x00, 0x00, 0xbe, 0x97, 0x8e, 0x3d,
    0x6c, 0x9c, 0xba, 0x3e, 0x28, 0x84, 0x5f, 0x3e, 0xf1, 0x9f, 0x50, 0xbd,
    0xdc, 0xc0, 0x82, 0xbe, 0x1c, 0x48, 0xed, 0xbd, 0xd3, 0x2b, 0xbe, 0x3e,
    0xb8, 0x60, 0xa5, 0xbe, 0xbc, 0xa4, 0x6c, 0x3d, 0x28, 0xc9, 0x7b, 0x3e,
    0x3b, 0xbb, 0xa1, 0x3e, 0xcc, 0xbf, 0xce, 0x3e, 0xc4, 0xb7, 0xd3, 0xbe,
    0x22, 0xce, 0xfb, 0xbe, 0x86, 0x1c, 0xda, 0x3d, 0xa3, 0x9d, 0x27, 0xbe,
    0x9c, 0x74, 0xda, 0xbe, 0xe0, 0x50, 0x72, 0xbd, 0x38, 0xcd, 0x3b, 0x3e,
    0x13, 0x4b, 0xc3, 0xbe, 0x48, 0x3d, 0x42, 0x3e, 0xbe, 0x61, 0x39, 0x3e,
    0x1a, 0x1c, 0x44, 0x3e, 0x40, 0x84, 0xe0, 0xbd, 0xcb, 0x1c, 0xf1, 0x3d,
    0x48, 0x7f, 0xe7, 0x3e, 0xd7, 0xe5, 0xca, 0xbe, 0x7d, 0x0e, 0x42, 0xbf,
    0xe6, 0xe2, 0x0a, 0x3e, 0xa3, 0x7b, 0x88, 0x3e, 0x08, 0xe5, 0xc1, 0x3e,
    0x82, 0x3a, 0xb1, 0xbe, 0x68, 0x55, 0x29, 0xbe, 0xc0, 0xed, 0x51, 0xbd,
    0x60, 0xbd, 0xbe, 0x3e, 0x5c, 0x57, 0x9d, 0xbe, 0x70, 0xd5, 0xeb, 0xbe,
    0x20, 0x0e, 0xa4, 0xbe, 0x50, 0x86, 0xd4, 0x3d, 0x24, 0xfb, 0x9b, 0xbe,
    0xc4, 0x0d, 0xb2, 0xbe, 0x0c, 0x4d, 0xec, 0xbe, 0x70, 0x43, 0x8f, 0xbe,
    0xbc, 0x40, 0xf4, 0xbe, 0x88, 0x02, 0x3d, 0x3e, 0x50, 0xbf, 0x64, 0x3e,
    0x58, 0xa4, 0x2f, 0xbe, 0x0c, 0xfa, 0x9d, 0xbe, 0xcc, 0x15, 0x40, 0xbf,
    0xc0, 0x9d, 0x22, 0xbd, 0x4c, 0x84, 0x8b, 0x3e, 0x76, 0x19, 0xc4, 0x3e,
    0x00, 0xd3, 0x63, 0xbc, 0x07, 0x10, 0xeb, 0xbc, 0x00, 0xf4, 0x3b, 0x3e,
    0x08, 0x53, 0xdb, 0xbe, 0xd8, 0x39, 0x4f, 0x3e, 0x60, 0xb6, 0x72, 0xbd,
    0x3b, 0x70, 0x54, 0xbd, 0xc5, 0x2f, 0x93, 0x3d, 0x14, 0x0d, 0x93, 0xbe,
    0xfe, 0x37, 0xc8, 0x3e, 0x45, 0x42, 0x9b, 0x3d, 0x48, 0x18, 0x5b, 0x3e,
    0xba, 0x52, 0x92, 0xbd, 0xe0, 0xa7, 0x70, 0xbe, 0x60, 0xa6, 0x27, 0x3e,
    0xbc, 0xb6, 0xa7, 0xbe, 0x98, 0xb4, 0x6b, 0xbe, 0xac, 0x02, 0xae, 0x3d,
    0xbd, 0x58, 0x1f, 0x3d, 0x2c, 0x10, 0xe6, 0xbe, 0xb4, 0x06, 0xb7, 0x3d,
    0x58, 0xd8, 0x2b, 0x3e, 0xc6, 0x14, 0x57, 0x3e, 0x9b, 0xcc, 0x03, 0xbf,
    0x8d, 0x74, 0x5f, 0x3e, 0x46, 0xc4, 0xd8, 0x3d, 0x71, 0x29, 0x75, 0xbe,
    0x65, 0xf2, 0x85, 0xbe, 0xe7, 0x74, 0x59, 0x3d, 0x80, 0x14, 0xe6, 0x3e,
    0xa0, 0x4a, 0xdb, 0xbd, 0x2f, 0x26, 0x03, 0x3f, 0xd0, 0x69, 0x9d, 0xbe,
    0x95, 0xae, 0xb2, 0x3e, 0xe5, 0x67, 0xf7, 0xbe, 0xe0, 0xbb, 0x76, 0x3e,
    0xca, 0x8e, 0xc3, 0x3e, 0x4c, 0x66, 0xe3, 0x3e, 0x4a, 0x26, 0x44, 0x3c,
    0x6c, 0xc0, 0x0f, 0xbe, 0x62, 0xf9, 0xb9, 0xbe, 0xc2, 0xc9, 0xc3, 0x3e,
    0x26, 0x92, 0x1a, 0xbe, 0x35, 0x9c, 0xa3, 0x3e, 0xad, 0x9e, 0xed, 0x3e,
    0x50, 0x7c, 0xbc, 0x3e, 0x64, 0xc6, 0xb6, 0xbe, 0x78, 0xb1, 0x7b, 0x3e,
    0x40, 0x8d, 0x9b, 0xbd, 0xeb, 0xff, 0xa8, 0x3e, 0x8b, 0xf3, 0x1d, 0xbe,
    0x38, 0xbd, 0x37, 0xbe, 0x3c, 0x45, 0x54, 0xbe, 0x88, 0xe8, 0x0b, 0x3e,
    0xe1, 0xea, 0xae, 0x3e, 0x05, 0xbc, 0x97, 0xbe, 0x3b, 0x5b, 0x49, 0x3e,
    0xcf, 0x8d, 0x8f, 0x3d, 0x79, 0xf4, 0x07, 0xbf, 0xab, 0xa6, 0x19, 0x3e,
    0xbc, 0xb5, 0xd0, 0xbe, 0x28, 0xdd, 0x54, 0xbe, 0x20, 0xcb, 0xa0, 0x3e,
    0xa0, 0x8f, 0x56, 0xbd, 0x60, 0x27, 0xba, 0x3d, 0x58, 0x1a, 0x13, 0x3e,
    0x50, 0xdd, 0xf3, 0xbd, 0x30, 0x08, 0x1a, 0xbe, 0x10, 0x38, 0xf2, 0x3d,
    0xec, 0x44, 0x88, 0xbe, 0xf8, 0xa0, 0x41, 0xbe, 0x80, 0x09, 0x15, 0x3c,
    0x40, 0x72, 0x6e, 0x3d, 0xb0, 0x26, 0xdc, 0xbe, 0x80, 0xa0, 0x2f, 0xbe,
    0xc0, 0x2a, 0xdf, 0x3d, 0xfe, 0xfe, 0xff, 0xff, 0x04, 0x00, 0x00, 0x00,
    0x60, 0x00, 0x00, 0x00, 0x64, 0xaf, 0xf0, 0xbe, 0xf9, 0x18, 0xcd, 0x3e,
    0x0d, 0x46, 0x8a, 0xbe, 0x5d, 0x56, 0xd0, 0xbe, 0x4c, 0x0c, 0x0e, 0x3f,
    0x1a, 0xbc, 0x2f, 0xbd, 0x9d, 0xfd, 0x04, 0x3f, 0x54, 0x94, 0x19, 0xbe,
    0xca, 0x6c, 0x09, 0xbf, 0x7e, 0xf8, 0x1b, 0xbd, 0x38, 0x63, 0x2f, 0xbf,
    0x27, 0x02, 0xda, 0xbd, 0x33, 0xf4, 0x24, 0xbf, 0x06, 0xd5, 0x7c, 0xbe,
    0x66, 0xc0, 0xe5, 0xbe, 0xd4, 0x82, 0x1c, 0xbe, 0xc6, 0xde, 0x22, 0x3f,
    0x33, 0xfb, 0x3c, 0xbf, 0xaa, 0x46, 0xc9, 0x3e, 0xe4, 0xd2, 0x10, 0xbf,
    0xc0, 0xbf, 0xbb, 0xbe, 0x61, 0xf1, 0x44, 0x3f, 0x78, 0xec, 0xd9, 0xbd,
    0x84, 0x08, 0x74, 0xbe, 0x64, 0xfa, 0xff, 0xff, 0x68, 0xfa, 0xff, 0xff,
    0x0f, 0x00, 0x00, 0x00, 0x4d, 0x4c, 0x49, 0x52, 0x20, 0x43, 0x6f, 0x6e,
    0x76, 0x65, 0x72, 0x74, 0x65, 0x64, 0x2e, 0x00, 0x01, 0x00, 0x00, 0x00,
    0x14, 0x00, 0x00, 0x00, 0x00, 0x00, 0x0e, 0x00, 0x18, 0x00, 0x14, 0x00,
    0x10, 0x00, 0x0c, 0x00, 0x08, 0x00, 0x04, 0x00, 0x0e, 0x00, 0x00, 0x00,
    0x14, 0x00, 0x00, 0x00, 0x1c, 0x00, 0x00, 0x00, 0x24, 0x01, 0x00, 0x00,
    0x28, 0x01, 0x00, 0x00, 0x2c, 0x01, 0x00, 0x00, 0x04, 0x00, 0x00, 0x00,
    0x6d, 0x61, 0x69, 0x6e, 0x00, 0x00, 0x00, 0x00, 0x04, 0x00, 0x00, 0x00,
    0xcc, 0x00, 0x00, 0x00, 0x84, 0x00, 0x00, 0x00, 0x50, 0x00, 0x00, 0x00,
    0x14, 0x00, 0x00, 0x00, 0x00, 0x00, 0x0e, 0x00, 0x1a, 0x00, 0x14, 0x00,
    0x10, 0x00, 0x0c, 0x00, 0x0b, 0x00, 0x04, 0x00, 0x0e, 0x00, 0x00, 0x00,
    0x1c, 0x00, 0x00, 0x00, 0x00, 0x00, 0x00, 0x09, 0x1c, 0x00, 0x00, 0x00,
    0x20, 0x00, 0x00, 0x00, 0x01, 0x00, 0x00, 0x00, 0x00, 0x00, 0x06, 0x00,
    0x08, 0x00, 0x04, 0x00, 0x06, 0x00, 0x00, 0x00, 0x00, 0x00, 0x80, 0x3f,
    0x01, 0x00, 0x00, 0x00, 0x0a, 0x00, 0x00, 0x00, 0x01, 0x00, 0x00, 0x00,
    0x09, 0x00, 0x00, 0x00, 0x9a, 0xff, 0xff, 0xff, 0x10, 0x00, 0x00, 0x00,
    0x00, 0x00, 0x00, 0x08, 0x0c, 0x00, 0x00, 0x00, 0x10, 0x00, 0x00, 0x00,
    0x2c, 0xfb, 0xff, 0xff, 0x01, 0x00, 0x00, 0x00, 0x09, 0x00, 0x00, 0x00,
    0x03, 0x00, 0x00, 0x00, 0x08, 0x00, 0x00, 0x00, 0x01, 0x00, 0x00, 0x00,
    0x03, 0x00, 0x00, 0x00, 0xca, 0xff, 0xff, 0xff, 0x10, 0x00, 0x00, 0x00,
    0x00, 0x00, 0x00, 0x08, 0x10, 0x00, 0x00, 0x00, 0x14, 0x00, 0x00, 0x00,
    0xba, 0xff, 0xff, 0xff, 0x00, 0x00, 0x00, 0x01, 0x01, 0x00, 0x00, 0x00,
    0x08, 0x00, 0x00, 0x00, 0x03, 0x00, 0x00, 0x00, 0x07, 0x00, 0x00, 0x00,
    0x02, 0x00, 0x00, 0x00, 0x04, 0x00, 0x00, 0x00, 0x00, 0x00, 0x0e, 0x00,
    0x16, 0x00, 0x00, 0x00, 0x10, 0x00, 0x0c, 0x00, 0x0b, 0x00, 0x04, 0x00,
    0x0e, 0x00, 0x00, 0x00, 0x18, 0x00, 0x00, 0x00, 0x00, 0x00, 0x00, 0x08,
    0x18, 0x00, 0x00, 0x00, 0x1c, 0x00, 0x00, 0x00, 0x00, 0x00, 0x06, 0x00,
    0x08, 0x00, 0x07, 0x00, 0x06, 0x00, 0x00, 0x00, 0x00, 0x00, 0x00, 0x01,
    0x01, 0x00, 0x00, 0x00, 0x07, 0x00, 0x00, 0x00, 0x03, 0x00, 0x00, 0x00,
    0x00, 0x00, 0x00, 0x00, 0x06, 0x00, 0x00, 0x00, 0x05, 0x00, 0x00, 0x00,
    0x01, 0x00, 0x00, 0x00, 0x0a, 0x00, 0x00, 0x00, 0x01, 0x00, 0x00, 0x00,
    0x00, 0x00, 0x00, 0x00, 0x0b, 0x00, 0x00, 0x00, 0xfc, 0x03, 0x00, 0x00,
    0xa4, 0x03, 0x00, 0x00, 0x4c, 0x03, 0x00, 0x00, 0x10, 0x03, 0x00, 0x00,
    0xb4, 0x02, 0x00, 0x00, 0x5c, 0x02, 0x00, 0x00, 0x10, 0x02, 0x00, 0x00,
    0x7c, 0x01, 0x00, 0x00, 0xe0, 0x00, 0x00, 0x00, 0x60, 0x00, 0x00, 0x00,
    0x04, 0x00, 0x00, 0x00, 0x46, 0xfc, 0xff, 0xff, 0x00, 0x00, 0x00, 0x01,
    0x14, 0x00, 0x00, 0x00, 0x1c, 0x00, 0x00, 0x00, 0x1c, 0x00, 0x00, 0x00,
    0x0b, 0x00, 0x00, 0x00, 0x34, 0x00, 0x00, 0x00, 0x02, 0x00, 0x00, 0x00,
    0xff, 0xff, 0xff, 0xff, 0x03, 0x00, 0x00, 0x00, 0x30, 0xfc, 0xff, 0xff,
    0x1b, 0x00, 0x00, 0x00, 0x53, 0x74, 0x61, 0x74, 0x65, 0x66, 0x75, 0x6c,
    0x50, 0x61, 0x72, 0x74, 0x69, 0x74, 0x69, 0x6f, 0x6e, 0x65, 0x64, 0x43,
    0x61, 0x6c, 0x6c, 0x5f, 0x31, 0x3a, 0x30, 0x00, 0x02, 0x00, 0x00, 0x00,
    0x01, 0x00, 0x00, 0x00, 0x03, 0x00, 0x00, 0x00, 0x9e, 0xfc, 0xff, 0xff,
    0x00, 0x00, 0x00, 0x01, 0x14, 0x00, 0x00, 0x00, 0x1c, 0x00, 0x00, 0x00,
    0x1c, 0x00, 0x00, 0x00, 0x0a, 0x00, 0x00, 0x00, 0x58, 0x00, 0x00, 0x00,
    0x02, 0x00, 0x00, 0x00, 0xff, 0xff, 0xff, 0xff, 0x03, 0x00, 0x00, 0x00,
    0x88, 0xfc, 0xff, 0xff, 0x3c, 0x00, 0x00, 0x00, 0x73, 0x65, 0x71, 0x75,
    0x65, 0x6e, 0x74, 0x69, 0x61, 0x6c, 0x5f, 0x31, 0x2f, 0x64, 0x65, 0x6e,
    0x73, 0x65, 0x5f, 0x32, 0x5f, 0x31, 0x2f, 0x4d, 0x61, 0x74, 0x4d, 0x75,
    0x6c, 0x3b, 0x73, 0x65, 0x71, 0x75, 0x65, 0x6e, 0x74, 0x69, 0x61, 0x6c,
    0x5f, 0x31, 0x2f, 0x64, 0x65, 0x6e, 0x73, 0x65, 0x5f, 0x32, 0x5f, 0x31,
    0x2f, 0x42, 0x69, 0x61, 0x73, 0x41, 0x64, 0x64, 0x00, 0x00, 0x00, 0x00,
    0x02, 0x00, 0x00, 0x00, 0x01, 0x00, 0x00, 0x00, 0x03, 0x00, 0x00, 0x00,
    0x1a, 0xfd, 0xff, 0xff, 0x00, 0x00, 0x00, 0x01, 0x14, 0x00, 0x00, 0x00,
    0x1c, 0x00, 0x00, 0x00, 0x1c, 0x00, 0x00, 0x00, 0x09, 0x00, 0x00, 0x00,
    0x74, 0x00, 0x00, 0x00, 0x02, 0x00, 0x00, 0x00, 0xff, 0xff, 0xff, 0xff,
    0x08, 0x00, 0x00, 0x00, 0x04, 0xfd, 0xff, 0xff, 0x58, 0x00, 0x00, 0x00,
    0x73, 0x65, 0x71, 0x75, 0x65, 0x6e, 0x74, 0x69, 0x61, 0x6c, 0x5f, 0x31,
    0x2f, 0x64, 0x65, 0x6e, 0x73, 0x65, 0x5f, 0x31, 0x5f, 0x32, 0x2f, 0x4d,
    0x61, 0x74, 0x4d, 0x75, 0x6c, 0x3b, 0x73, 0x65, 0x71, 0x75, 0x65, 0x6e,
    0x74, 0x69, 0x61, 0x6c, 0x5f, 0x31, 0x2f, 0x64, 0x65, 0x6e, 0x73, 0x65,
    0x5f, 0x31, 0x5f, 0x32, 0x2f, 0x52, 0x65, 0x6c, 0x75, 0x3b, 0x73, 0x65,
    0x71, 0x75, 0x65, 0x6e, 0x74, 0x69, 0x61, 0x6c, 0x5f, 0x31, 0x2f, 0x64,
    0x65, 0x6e, 0x73, 0x65, 0x5f, 0x31, 0x5f, 0x32, 0x2f, 0x42, 0x69, 0x61,
    0x73, 0x41, 0x64, 0x64, 0x00, 0x00, 0x00, 0x00, 0x02, 0x00, 0x00, 0x00,
    0x01, 0x00, 0x00, 0x00, 0x08, 0x00, 0x00, 0x00, 0xb2, 0xfd, 0xff, 0xff,
    0x00, 0x00, 0x00, 0x01, 0x14, 0x00, 0x00, 0x00, 0x1c, 0x00, 0x00, 0x00,
    0x1c, 0x00, 0x00, 0x00, 0x08, 0x00, 0x00, 0x00, 0x6c, 0x00, 0x00, 0x00,
    0x02, 0x00, 0x00, 0x00, 0xff, 0xff, 0xff, 0xff, 0x10, 0x00, 0x00, 0x00,
    0x9c, 0xfd, 0xff, 0xff, 0x52, 0x00, 0x00, 0x00, 0x73, 0x65, 0x71, 0x75,
    0x65, 0x6e, 0x74, 0x69, 0x61, 0x6c, 0x5f, 0x31, 0x2f, 0x64, 0x65, 0x6e,
    0x73, 0x65, 0x5f, 0x31, 0x2f, 0x4d, 0x61, 0x74, 0x4d, 0x75, 0x6c, 0x3b,
    0x73, 0x65, 0x71, 0x75, 0x65, 0x6e, 0x74, 0x69, 0x61, 0x6c, 0x5f, 0x31,
    0x2f, 0x64, 0x65, 0x6e, 0x73, 0x65, 0x5f, 0x31, 0x2f, 0x52, 0x65, 0x6c,
    0x75, 0x3b, 0x73, 0x65, 0x71, 0x75, 0x65, 0x6e, 0x74, 0x69, 0x61, 0x6c,
    0x5f, 0x31, 0x2f, 0x64, 0x65, 0x6e, 0x73, 0x65, 0x5f, 0x31, 0x2f, 0x42,
    0x69, 0x61, 0x73, 0x41, 0x64, 0x64, 0x00, 0x00, 0x02, 0x00, 0x00, 0x00,
    0x01, 0x00, 0x00, 0x00, 0x10, 0x00, 0x00, 0x00, 0x96, 0xfe, 0xff, 0xff,
    0x00, 0x00, 0x00, 0x01, 0x10, 0x00, 0x00, 0x00, 0x10, 0x00, 0x00, 0x00,
    0x07, 0x00, 0x00, 0x00, 0x28, 0x00, 0x00, 0x00, 0x1c, 0xfe, 0xff, 0xff,
    0x1b, 0x00, 0x00, 0x00, 0x73, 0x65, 0x71, 0x75, 0x65, 0x6e, 0x74, 0x69,
    0x61, 0x6c, 0x5f, 0x31, 0x2f, 0x64, 0x65, 0x6e, 0x73, 0x65, 0x5f, 0x31,
    0x2f, 0x4d, 0x61, 0x74, 0x4d, 0x75, 0x6c, 0x00, 0x02, 0x00, 0x00, 0x00,
    0x10, 0x00, 0x00, 0x00, 0x02, 0x00, 0x00, 0x00, 0xde, 0xfe, 0xff, 0xff,
    0x00, 0x00, 0x00, 0x01, 0x10, 0x00, 0x00, 0x00, 0x10, 0x00, 0x00, 0x00,
    0x06, 0x00, 0x00, 0x00, 0x38, 0x00, 0x00, 0x00, 0x64, 0xfe, 0xff, 0xff,
    0x2b, 0x00, 0x00, 0x00, 0x73, 0x65, 0x71, 0x75, 0x65, 0x6e, 0x74, 0x69,
    0x61, 0x6c, 0x5f, 0x31, 0x2f, 0x64, 0x65, 0x6e, 0x73, 0x65, 0x5f, 0x31,
    0x2f, 0x42, 0x69, 0x61, 0x73, 0x41, 0x64, 0x64, 0x2f, 0x52, 0x65, 0x61,
    0x64, 0x56, 0x61, 0x72, 0x69, 0x61, 0x62, 0x6c, 0x65, 0x4f, 0x70, 0x00,
    0x01, 0x00, 0x00, 0x00, 0x10, 0x00, 0x00, 0x00, 0x32, 0xff, 0xff, 0xff,
    0x00, 0x00, 0x00, 0x01, 0x10, 0x00, 0x00, 0x00, 0x10, 0x00, 0x00, 0x00,
    0x05, 0x00, 0x00, 0x00, 0x3c, 0x00, 0x00, 0x00, 0xb8, 0xfe, 0xff, 0xff,
    0x2d, 0x00, 0x00, 0x00, 0x73, 0x65, 0x71, 0x75, 0x65, 0x6e, 0x74, 0x69,
    0x61, 0x6c, 0x5f, 0x31, 0x2f, 0x64, 0x65, 0x6e, 0x73, 0x65, 0x5f, 0x31,
    0x5f, 0x32, 0x2f, 0x42, 0x69, 0x61, 0x73, 0x41, 0x64, 0x64, 0x2f, 0x52,
    0x65, 0x61, 0x64, 0x56, 0x61, 0x72, 0x69, 0x61, 0x62, 0x6c, 0x65, 0x4f,
    0x70, 0x00, 0x00, 0x00, 0x01, 0x00, 0x00, 0x00, 0x08, 0x00, 0x00, 0x00,
    0x8a, 0xff, 0xff, 0xff, 0x00, 0x00, 0x00, 0x01, 0x10, 0x00, 0x00, 0x00,
    0x10, 0x00, 0x00, 0x00, 0x04, 0x00, 0x00, 0x00, 0x1c, 0x00, 0x00, 0x00,
    0x10, 0xff, 0xff, 0xff, 0x0f, 0x00, 0x00, 0x00, 0x61, 0x72, 0x69, 0x74,
    0x68, 0x2e, 0x63, 0x6f, 0x6e, 0x73, 0x74, 0x61, 0x6e, 0x74, 0x32, 0x00,
    0x01, 0x00, 0x00, 0x00, 0x03, 0x00, 0x00, 0x00, 0xc2, 0xff, 0xff, 0xff,
    0x00, 0x00, 0x00, 0x01, 0x10, 0x00, 0x00, 0x00, 0x10, 0x00, 0x00, 0x00,
    0x03, 0x00, 0x00, 0x00, 0x1c, 0x00, 0x00, 0x00, 0x48, 0xff, 0xff, 0xff,
    0x0f, 0x00, 0x00, 0x00, 0x61, 0x72, 0x69, 0x74, 0x68, 0x2e, 0x63, 0x6f,
    0x6e, 0x73, 0x74, 0x61, 0x6e, 0x74, 0x31, 0x00, 0x02, 0x00, 0x00, 0x00,
    0x08, 0x00, 0x00, 0x00, 0x10, 0x00, 0x00, 0x00, 0x00, 0x00, 0x16, 0x00,
    0x18, 0x00, 0x14, 0x00, 0x00, 0x00, 0x10, 0x00, 0x0c, 0x00, 0x08, 0x00,
    0x00, 0x00, 0x00, 0x00, 0x00, 0x00, 0x07, 0x00, 0x16, 0x00, 0x00, 0x00,
    0x00, 0x00, 0x00, 0x01, 0x10, 0x00, 0x00, 0x00, 0x10, 0x00, 0x00, 0x00,
    0x02, 0x00, 0x00, 0x00, 0x1c, 0x00, 0x00, 0x00, 0x9c, 0xff, 0xff, 0xff,
    0x0e, 0x00, 0x00, 0x00, 0x61, 0x72, 0x69, 0x74, 0x68, 0x2e, 0x63, 0x6f,
    0x6e, 0x73, 0x74, 0x61, 0x6e, 0x74, 0x00, 0x00, 0x02, 0x00, 0x00, 0x00,
    0x03, 0x00, 0x00, 0x00, 0x08, 0x00, 0x00, 0x00, 0x00, 0x00, 0x16, 0x00,
    0x1c, 0x00, 0x18, 0x00, 0x00, 0x00, 0x14, 0x00, 0x10, 0x00, 0x0c, 0x00,
    0x00, 0x00, 0x00, 0x00, 0x08, 0x00, 0x07, 0x00, 0x16, 0x00, 0x00, 0x00,
    0x00, 0x00, 0x00, 0x01, 0x14, 0x00, 0x00, 0x00, 0x20, 0x00, 0x00, 0x00,
    0x20, 0x00, 0x00, 0x00, 0x01, 0x00, 0x00, 0x00, 0x3c, 0x00, 0x00, 0x00,
    0x02, 0x00, 0x00, 0x00, 0xff, 0xff, 0xff, 0xff, 0x02, 0x00, 0x00, 0x00,
    0x04, 0x00, 0x04, 0x00, 0x04, 0x00, 0x00, 0x00, 0x1e, 0x00, 0x00, 0x00,
    0x73, 0x65, 0x72, 0x76, 0x69, 0x6e, 0x67, 0x5f, 0x64, 0x65, 0x66, 0x61,
    0x75, 0x6c, 0x74, 0x5f, 0x6b, 0x65, 0x72, 0x61, 0x73, 0x5f, 0x74, 0x65,
    0x6e, 0x73, 0x6f, 0x72, 0x3a, 0x30, 0x00, 0x00, 0x02, 0x00, 0x00, 0x00,
    0x01, 0x00, 0x00, 0x00, 0x02, 0x00, 0x00, 0x00, 0x02, 0x00, 0x00, 0x00,
    0x20, 0x00, 0x00, 0x00, 0x04, 0x00, 0x00, 0x00, 0xf4, 0xff, 0xff, 0xff,
    0x19, 0x00, 0x00, 0x00, 0x00, 0x00, 0x00, 0x19, 0x0c, 0x00, 0x0c, 0x00,
    0x0b, 0x00, 0x00, 0x00, 0x00, 0x00, 0x04, 0x00, 0x0c, 0x00, 0x00, 0x00,
    0x09, 0x00, 0x00, 0x00, 0x00, 0x00, 0x00, 0x09};
const unsigned int env_model_data_len = 2948;
